unsigned char simple_tflite[] = {
  0x20, 0x00, 0x00, 0x00, 0x54, 0x46, 0x4c, 0x33, 0x00, 0x00, 0x00, 0x00,
  0x00, 0x00, 0x12, 0x00, 0x1c, 0x00, 0x04, 0x00, 0x08, 0x00, 0x0c, 0x00,
  0x10, 0x00, 0x14, 0x00, 0x00, 0x00, 0x18, 0x00, 0x12, 0x00, 0x00, 0x00,
  0x03, 0x00, 0x00, 0x00, 0xe8, 0x0f, 0x00, 0x00, 0x48, 0x03, 0x00, 0x00,
  0x30, 0x03, 0x00, 0x00, 0x3c, 0x00, 0x00, 0x00, 0x04, 0x00, 0x00, 0x00,
  0x01, 0x00, 0x00, 0x00, 0x0c, 0x00, 0x00, 0x00, 0x08, 0x00, 0x0c, 0x00,
  0x04, 0x00, 0x08, 0x00, 0x08, 0x00, 0x00, 0x00, 0x08, 0x00, 0x00, 0x00,
  0x0b, 0x00, 0x00, 0x00, 0x13, 0x00, 0x00, 0x00, 0x6d, 0x69, 0x6e, 0x5f,
  0x72, 0x75, 0x6e, 0x74, 0x69, 0x6d, 0x65, 0x5f, 0x76, 0x65, 0x72, 0x73,
  0x69, 0x6f, 0x6e, 0x00, 0x0c, 0x00, 0x00, 0x00, 0xe8, 0x02, 0x00, 0x00,
  0xd4, 0x02, 0x00, 0x00, 0xb8, 0x02, 0x00, 0x00, 0x94, 0x02, 0x00, 0x00,
  0x00, 0x02, 0x00, 0x00, 0xac, 0x01, 0x00, 0x00, 0x78, 0x00, 0x00, 0x00,
  0x6c, 0x00, 0x00, 0x00, 0x58, 0x00, 0x00, 0x00, 0x44, 0x00, 0x00, 0x00,
  0x30, 0x00, 0x00, 0x00, 0x04, 0x00, 0x00, 0x00, 0x8e, 0xfc, 0xff, 0xff,
  0x04, 0x00, 0x00, 0x00, 0x10, 0x00, 0x00, 0x00, 0x31, 0x2e, 0x36, 0x2e,
  0x30, 0x00, 0x00, 0x00, 0x00, 0x00, 0x00, 0x00, 0x00, 0x00, 0x00, 0x00,
  0x00, 0x00, 0x00, 0x00, 0x00, 0x00, 0x00, 0x00, 0x00, 0x00, 0x00, 0x00,
  0x14, 0xf2, 0xff, 0xff, 0x00, 0x00, 0x00, 0x00, 0x00, 0x00, 0x00, 0x00,
  0x00, 0x00, 0x00, 0x00, 0x24, 0xf2, 0xff, 0xff, 0x00, 0x00, 0x00, 0x00,
  0x00, 0x00, 0x00, 0x00, 0x00, 0x00, 0x00, 0x00, 0x34, 0xf2, 0xff, 0xff,
  0x00, 0x00, 0x00, 0x00, 0x00, 0x00, 0x00, 0x00, 0x00, 0x00, 0x00, 0x00,
  0x44, 0xf2, 0xff, 0xff, 0x00, 0x00, 0x00, 0x00, 0xee, 0xfc, 0xff, 0xff,
  0x04, 0x00, 0x00, 0x00, 0x20, 0x01, 0x00, 0x00, 0xef, 0x8c, 0xe5, 0x23,
  0x81, 0xa9, 0x44, 0x8a, 0xa2, 0xfe, 0xc6, 0x12, 0xcb, 0x5b, 0xe0, 0x1d,
  0x7f, 0x11, 0x18, 0xfa, 0xd6, 0x52, 0x81, 0x7a, 0xda, 0x1a, 0xe5, 0x7f,
  0x5e, 0x58, 0xb1, 0xe0, 0xed, 0x8a, 0xd3, 0xf2, 0x81, 0xd7, 0xf8, 0xc5,
  0xfe, 0x44, 0x19, 0xf0, 0x1f, 0x81, 0xca, 0x2c, 0x3c, 0x1d, 0x06, 0xcc,
  0xe5, 0x2a, 0x83, 0x9a, 0x5c, 0x7d, 0x00, 0x7f, 0xd8, 0x1c, 0x71, 0x6a,
  0x41, 0x7f, 0x93, 0xd6, 0x2a, 0xbb, 0xcb, 0xb9, 0xb5, 0x0a, 0xf5, 0x03,
  0xd4, 0x17, 0x09, 0x5f, 0x7f, 0xf0, 0x81, 0x41, 0x3a, 0x7d, 0xa9, 0xc1,
  0xb8, 0x4d, 0xea, 0xd2, 0x37, 0x91, 0xce, 0x81, 0xe1, 0xd9, 0xae, 0xcb,
  0xe3, 0x1b, 0x81, 0xd7, 0xa7, 0xd5, 0xd2, 0x88, 0xe8, 0xfd, 0xf0, 0xcf,
  0x0f, 0x12, 0x1f, 0x09, 0x7f, 0xfe, 0xea, 0x81, 0x06, 0xf8, 0x15, 0x06,
  0x18, 0x67, 0x7f, 0x38, 0x65, 0x08, 0xd3, 0xe5, 0xcc, 0xae, 0xb1, 0xb3,
  0x1a, 0xe3, 0x0c, 0x7f, 0x47, 0x25, 0xdc, 0xf3, 0x43, 0x04, 0x71, 0xb0,
  0x9a, 0x81, 0xcb, 0xd2, 0x9f, 0x78, 0x7f, 0x6d, 0x25, 0x03, 0x52, 0x54,
  0x15, 0x62, 0x0f, 0x15, 0x81, 0x08, 0xfa, 0x32, 0xe2, 0x13, 0xf1, 0x7f,
  0x2b, 0x3d, 0x5b, 0x0e, 0x4a, 0x3e, 0xf5, 0x17, 0x67, 0x6c, 0x7f, 0xd3,
  0xbd, 0xad, 0x02, 0x9e, 0xcd, 0x02, 0xb9, 0x2e, 0xa3, 0xaa, 0x81, 0xfb,
  0xc0, 0x9f, 0x7f, 0x33, 0x69, 0x12, 0x17, 0x2a, 0xf8, 0x13, 0x13, 0x7f,
  0x39, 0x6d, 0x51, 0x2a, 0x3e, 0xe8, 0x16, 0x22, 0x90, 0xc2, 0x7f, 0x74,
  0x2b, 0xc4, 0xdb, 0xeb, 0x61, 0x81, 0xc8, 0x2b, 0x7e, 0xd2, 0x2e, 0x90,
  0x20, 0x12, 0xd0, 0xd1, 0x38, 0x07, 0xd8, 0x1f, 0x09, 0x7f, 0x0a, 0xf1,
  0xc0, 0xf9, 0xdf, 0x24, 0x3b, 0x12, 0x15, 0x7f, 0xc0, 0xd7, 0x15, 0x81,
  0xef, 0x51, 0xf8, 0x67, 0x32, 0x7f, 0x27, 0x23, 0x5a, 0x0e, 0x58, 0x08,
  0x24, 0x1e, 0x7f, 0x19, 0x52, 0x4a, 0x06, 0x38, 0x1f, 0x11, 0xff, 0xfe,
  0x6a, 0x7f, 0xb8, 0xd8, 0xe9, 0xca, 0xf9, 0xd3, 0x00, 0x00, 0x00, 0x00,
  0x1e, 0xfe, 0xff, 0xff, 0x04, 0x00, 0x00, 0x00, 0x40, 0x00, 0x00, 0x00,
  0x08, 0x30, 0x54, 0x93, 0x02, 0x61, 0x54, 0x89, 0x01, 0x67, 0xe1, 0xc3,
  0x03, 0xa3, 0xcb, 0x56, 0x3b, 0xaa, 0x5e, 0xa1, 0xf5, 0xa7, 0xf5, 0x97,
  0x23, 0x4e, 0x57, 0x35, 0xe6, 0xd9, 0x9a, 0xf7, 0x32, 0xd6, 0x53, 0x09,
  0xbe, 0x40, 0xb9, 0x4c, 0xc4, 0xd2, 0x66, 0x2c, 0xc1, 0x5d, 0x48, 0xeb,
  0x67, 0x5b, 0xcd, 0x07, 0x7f, 0x08, 0x61, 0xd5, 0xf0, 0xff, 0x15, 0xab,
  0x3d, 0x58, 0x68, 0x50, 0x00, 0x00, 0x00, 0x00, 0x6e, 0xfe, 0xff, 0xff,
  0x04, 0x00, 0x00, 0x00, 0x80, 0x00, 0x00, 0x00, 0xe6, 0x00, 0x00, 0x00,
  0xc8, 0xff, 0xff, 0xff, 0x07, 0x00, 0x00, 0x00, 0xf8, 0xff, 0xff, 0xff,
  0x4d, 0x00, 0x00, 0x00, 0x32, 0x00, 0x00, 0x00, 0xa6, 0xff, 0xff, 0xff,
  0xf5, 0xff, 0xff, 0xff, 0xc8, 0xff, 0xff, 0xff, 0x23, 0x00, 0x00, 0x00,
  0xdb, 0x00, 0x00, 0x00, 0xfe, 0x00, 0x00, 0x00, 0xd6, 0xff, 0xff, 0xff,
  0xfe, 0xff, 0xff, 0xff, 0xf5, 0xff, 0xff, 0xff, 0xd0, 0xff, 0xff, 0xff,
  0x95, 0x00, 0x00, 0x00, 0x75, 0xfe, 0xff, 0xff, 0x26, 0x00, 0x00, 0x00,
  0xe6, 0xfe, 0xff, 0xff, 0xf6, 0xff, 0xff, 0xff, 0xf4, 0x00, 0x00, 0x00,
  0x1d, 0xff, 0xff, 0xff, 0xd2, 0xfe, 0xff, 0xff, 0xe5, 0xff, 0xff, 0xff,
  0x36, 0x00, 0x00, 0x00, 0xd6, 0xff, 0xff, 0xff, 0xca, 0xff, 0xff, 0xff,
  0x00, 0x00, 0x00, 0x00, 0xf2, 0xfe, 0xff, 0xff, 0x10, 0xff, 0xff, 0xff,
  0xfc, 0xff, 0xff, 0xff, 0x00, 0x00, 0x00, 0x00, 0xfe, 0xfe, 0xff, 0xff,
  0x04, 0x00, 0x00, 0x00, 0x08, 0x00, 0x00, 0x00, 0x01, 0x00, 0x00, 0x00,
  0x02, 0x00, 0x00, 0x00, 0x00, 0x00, 0x00, 0x00, 0x00, 0x00, 0x00, 0x00,
  0x00, 0x00, 0x00, 0x00, 0x1e, 0xff, 0xff, 0xff, 0x04, 0x00, 0x00, 0x00,
  0x08, 0x00, 0x00, 0x00, 0x0d, 0x00, 0x00, 0x00, 0xf3, 0xff, 0xff, 0xff,
  0x00, 0x00, 0x00, 0x00, 0x94, 0xf4, 0xff, 0xff, 0x00, 0x00, 0x00, 0x00,
  0x00, 0x00, 0x00, 0x00, 0x00, 0x00, 0x00, 0x00, 0xa4, 0xf4, 0xff, 0xff,
  0x0f, 0x00, 0x00, 0x00, 0x4d, 0x4c, 0x49, 0x52, 0x20, 0x43, 0x6f, 0x6e,
  0x76, 0x65, 0x72, 0x74, 0x65, 0x64, 0x2e, 0x00, 0x01, 0x00, 0x00, 0x00,
  0x14, 0x00, 0x00, 0x00, 0x00, 0x00, 0x0e, 0x00, 0x18, 0x00, 0x04, 0x00,
  0x08, 0x00, 0x0c, 0x00, 0x10, 0x00, 0x14, 0x00, 0x0e, 0x00, 0x00, 0x00,
  0xac, 0x01, 0x00, 0x00, 0xa0, 0x01, 0x00, 0x00, 0x94, 0x01, 0x00, 0x00,
  0x14, 0x00, 0x00, 0x00, 0x04, 0x00, 0x00, 0x00, 0x04, 0x00, 0x00, 0x00,
  0x6d, 0x61, 0x69, 0x6e, 0x00, 0x00, 0x00, 0x00, 0x06, 0x00, 0x00, 0x00,
  0x58, 0x01, 0x00, 0x00, 0x00, 0x01, 0x00, 0x00, 0xbc, 0x00, 0x00, 0x00,
  0x74, 0x00, 0x00, 0x00, 0x38, 0x00, 0x00, 0x00, 0x04, 0x00, 0x00, 0x00,
  0xca, 0xfe, 0xff, 0xff, 0x05, 0x00, 0x00, 0x00, 0x10, 0x00, 0x00, 0x00,
  0x04, 0x00, 0x00, 0x00, 0x01, 0x00, 0x00, 0x00, 0x0b, 0x00, 0x00, 0x00,
  0x01, 0x00, 0x00, 0x00, 0x09, 0x00, 0x00, 0x00, 0x00, 0x00, 0x0e, 0x00,
  0x1a, 0x00, 0x08, 0x00, 0x0c, 0x00, 0x10, 0x00, 0x07, 0x00, 0x14, 0x00,
  0x0e, 0x00, 0x00, 0x00, 0x00, 0x00, 0x00, 0x09, 0x03, 0x00, 0x00, 0x00,
  0x24, 0x00, 0x00, 0x00, 0x18, 0x00, 0x00, 0x00, 0x0c, 0x00, 0x00, 0x00,
  0x00, 0x00, 0x06, 0x00, 0x08, 0x00, 0x04, 0x00, 0x06, 0x00, 0x00, 0x00,
  0x00, 0x00, 0x80, 0x3f, 0x01, 0x00, 0x00, 0x00, 0x09, 0x00, 0x00, 0x00,
  0x01, 0x00, 0x00, 0x00, 0x08, 0x00, 0x00, 0x00, 0xca, 0xff, 0xff, 0xff,
  0x00, 0x00, 0x00, 0x08, 0x02, 0x00, 0x00, 0x00, 0x18, 0x00, 0x00, 0x00,
  0x0c, 0x00, 0x00, 0x00, 0x04, 0x00, 0x00, 0x00, 0x94, 0xf5, 0xff, 0xff,
  0x01, 0x00, 0x00, 0x00, 0x08, 0x00, 0x00, 0x00, 0x03, 0x00, 0x00, 0x00,
  0x07, 0x00, 0x00, 0x00, 0x04, 0x00, 0x00, 0x00, 0x01, 0x00, 0x00, 0x00,
  0x00, 0x00, 0x0e, 0x00, 0x18, 0x00, 0x08, 0x00, 0x0c, 0x00, 0x10, 0x00,
  0x07, 0x00, 0x14, 0x00, 0x0e, 0x00, 0x00, 0x00, 0x00, 0x00, 0x00, 0x1b,
  0x01, 0x00, 0x00, 0x00, 0x18, 0x00, 0x00, 0x00, 0x0c, 0x00, 0x00, 0x00,
  0x04, 0x00, 0x00, 0x00, 0xd8, 0xf5, 0xff, 0xff, 0x01, 0x00, 0x00, 0x00,
  0x07, 0x00, 0x00, 0x00, 0x02, 0x00, 0x00, 0x00, 0x06, 0x00, 0x00, 0x00,
  0x02, 0x00, 0x00, 0x00, 0x00, 0x00, 0x0e, 0x00, 0x14, 0x00, 0x00, 0x00,
  0x08, 0x00, 0x0c, 0x00, 0x07, 0x00, 0x10, 0x00, 0x0e, 0x00, 0x00, 0x00,
  0x00, 0x00, 0x00, 0x01, 0x30, 0x00, 0x00, 0x00, 0x24, 0x00, 0x00, 0x00,
  0x10, 0x00, 0x00, 0x00, 0x0c, 0x00, 0x10, 0x00, 0x00, 0x00, 0x08, 0x00,
  0x0c, 0x00, 0x07, 0x00, 0x0c, 0x00, 0x00, 0x00, 0x00, 0x00, 0x00, 0x01,
  0x02, 0x00, 0x00, 0x00, 0x02, 0x00, 0x00, 0x00, 0x01, 0x00, 0x00, 0x00,
  0x06, 0x00, 0x00, 0x00, 0x03, 0x00, 0x00, 0x00, 0x00, 0x00, 0x00, 0x00,
  0x05, 0x00, 0x00, 0x00, 0x03, 0x00, 0x00, 0x00, 0x00, 0x00, 0x0a, 0x00,
  0x10, 0x00, 0x04, 0x00, 0x08, 0x00, 0x0c, 0x00, 0x0a, 0x00, 0x00, 0x00,
  0x04, 0x00, 0x00, 0x00, 0x10, 0x00, 0x00, 0x00, 0x04, 0x00, 0x00, 0x00,
  0x01, 0x00, 0x00, 0x00, 0x00, 0x00, 0x00, 0x00, 0x01, 0x00, 0x00, 0x00,
  0x0a, 0x00, 0x00, 0x00, 0x01, 0x00, 0x00, 0x00, 0x0b, 0x00, 0x00, 0x00,
  0x01, 0x00, 0x00, 0x00, 0x0a, 0x00, 0x00, 0x00, 0x0c, 0x00, 0x00, 0x00,
  0x4c, 0x0a, 0x00, 0x00, 0xc0, 0x09, 0x00, 0x00, 0x58, 0x09, 0x00, 0x00,
  0xe4, 0x06, 0x00, 0x00, 0x68, 0x06, 0x00, 0x00, 0xf4, 0x02, 0x00, 0x00,
  0xd0, 0x01, 0x00, 0x00, 0x44, 0x01, 0x00, 0x00, 0xc8, 0x00, 0x00, 0x00,
  0x6c, 0x00, 0x00, 0x00, 0x3c, 0x00, 0x00, 0x00, 0x04, 0x00, 0x00, 0x00,
  0xd8, 0xff, 0xff, 0xff, 0x18, 0x00, 0x00, 0x00, 0x04, 0x00, 0x00, 0x00,
  0x08, 0x00, 0x00, 0x00, 0x49, 0x64, 0x65, 0x6e, 0x74, 0x69, 0x74, 0x79,
  0x00, 0x00, 0x00, 0x00, 0x02, 0x00, 0x00, 0x00, 0x01, 0x00, 0x00, 0x00,
  0x02, 0x00, 0x00, 0x00, 0x0c, 0x00, 0x0c, 0x00, 0x04, 0x00, 0x00, 0x00,
  0x00, 0x00, 0x08, 0x00, 0x0c, 0x00, 0x00, 0x00, 0x14, 0x00, 0x00, 0x00,
  0x04, 0x00, 0x00, 0x00, 0x07, 0x00, 0x00, 0x00, 0x69, 0x6e, 0x70, 0x75,
  0x74, 0x5f, 0x31, 0x00, 0x04, 0x00, 0x00, 0x00, 0x01, 0x00, 0x00, 0x00,
  0x60, 0x00, 0x00, 0x00, 0x60, 0x00, 0x00, 0x00, 0x01, 0x00, 0x00, 0x00,
  0x52, 0xf6, 0xff, 0xff, 0x00, 0x00, 0x00, 0x09, 0x44, 0x00, 0x00, 0x00,
  0x0a, 0x00, 0x00, 0x00, 0x28, 0x00, 0x00, 0x00, 0x04, 0x00, 0x00, 0x00,
  0xcc, 0xf6, 0xff, 0xff, 0x14, 0x00, 0x00, 0x00, 0x04, 0x00, 0x00, 0x00,
  0x01, 0x00, 0x00, 0x00, 0x80, 0xff, 0xff, 0xff, 0xff, 0xff, 0xff, 0xff,
  0x01, 0x00, 0x00, 0x00, 0x00, 0x00, 0x80, 0x3b, 0x0d, 0x00, 0x00, 0x00,
  0x49, 0x64, 0x65, 0x6e, 0x74, 0x69, 0x74, 0x79, 0x5f, 0x69, 0x6e, 0x74,
  0x38, 0x00, 0x00, 0x00, 0x02, 0x00, 0x00, 0x00, 0x01, 0x00, 0x00, 0x00,
  0x02, 0x00, 0x00, 0x00, 0xaa, 0xf6, 0xff, 0xff, 0x00, 0x00, 0x00, 0x09,
  0x64, 0x00, 0x00, 0x00, 0x09, 0x00, 0x00, 0x00, 0x44, 0x00, 0x00, 0x00,
  0x04, 0x00, 0x00, 0x00, 0x9c, 0xf6, 0xff, 0xff, 0x30, 0x00, 0x00, 0x00,
  0x24, 0x00, 0x00, 0x00, 0x18, 0x00, 0x00, 0x00, 0x04, 0x00, 0x00, 0x00,
  0x01, 0x00, 0x00, 0x00, 0x06, 0x00, 0x00, 0x00, 0x00, 0x00, 0x00, 0x00,
  0x00, 0x00, 0x00, 0x00, 0x01, 0x00, 0x00, 0x00, 0x54, 0xa5, 0xa9, 0x40,
  0x01, 0x00, 0x00, 0x00, 0x50, 0xb4, 0x20, 0x44, 0x01, 0x00, 0x00, 0x00,
  0x0e, 0x43, 0x31, 0xc4, 0x13, 0x00, 0x00, 0x00, 0x6d, 0x6f, 0x64, 0x65,
  0x6c, 0x2f, 0x64, 0x65, 0x6e, 0x73, 0x65, 0x2f, 0x42, 0x69, 0x61, 0x73,
  0x41, 0x64, 0x64, 0x00, 0x02, 0x00, 0x00, 0x00, 0x01, 0x00, 0x00, 0x00,
  0x02, 0x00, 0x00, 0x00, 0x22, 0xf7, 0xff, 0xff, 0x00, 0x00, 0x00, 0x09,
  0x74, 0x00, 0x00, 0x00, 0x08, 0x00, 0x00, 0x00, 0x44, 0x00, 0x00, 0x00,
  0x04, 0x00, 0x00, 0x00, 0x14, 0xf7, 0xff, 0xff, 0x30, 0x00, 0x00, 0x00,
  0x24, 0x00, 0x00, 0x00, 0x18, 0x00, 0x00, 0x00, 0x04, 0x00, 0x00, 0x00,
  0x01, 0x00, 0x00, 0x00, 0x80, 0xff, 0xff, 0xff, 0xff, 0xff, 0xff, 0xff,
  0x00, 0x00, 0x00, 0x00, 0x01, 0x00, 0x00, 0x00, 0xdb, 0x80, 0x5a, 0x40,
  0x01, 0x00, 0x00, 0x00, 0x5a, 0xa6, 0x59, 0x44, 0x01, 0x00, 0x00, 0x00,
  0x00, 0x00, 0x00, 0x00, 0x23, 0x00, 0x00, 0x00, 0x6d, 0x6f, 0x64, 0x65,
  0x6c, 0x2f, 0x67, 0x6c, 0x6f, 0x62, 0x61, 0x6c, 0x5f, 0x61, 0x76, 0x65,
  0x72, 0x61, 0x67, 0x65, 0x5f, 0x70, 0x6f, 0x6f, 0x6c, 0x69, 0x6e, 0x67,
  0x32, 0x64, 0x2f, 0x4d, 0x65, 0x61, 0x6e, 0x00, 0x02, 0x00, 0x00, 0x00,
  0x01, 0x00, 0x00, 0x00, 0x20, 0x00, 0x00, 0x00, 0xaa, 0xf7, 0xff, 0xff,
  0x00, 0x00, 0x00, 0x09, 0x04, 0x01, 0x00, 0x00, 0x07, 0x00, 0x00, 0x00,
  0x44, 0x00, 0x00, 0x00, 0x04, 0x00, 0x00, 0x00, 0x9c, 0xf7, 0xff, 0xff,
  0x30, 0x00, 0x00, 0x00, 0x24, 0x00, 0x00, 0x00, 0x18, 0x00, 0x00, 0x00,
  0x04, 0x00, 0x00, 0x00, 0x01, 0x00, 0x00, 0x00, 0x80, 0xff, 0xff, 0xff,
  0xff, 0xff, 0xff, 0xff, 0x00, 0x00, 0x00, 0x00, 0x01, 0x00, 0x00, 0x00,
  0x4e, 0x30, 0x13, 0x41, 0x01, 0x00, 0x00, 0x00, 0x1e, 0x9d, 0x12, 0x45,
  0x01, 0x00, 0x00, 0x00, 0x00, 0x00, 0x00, 0x00, 0xb1, 0x00, 0x00, 0x00,
  0x6d, 0x6f, 0x64, 0x65, 0x6c, 0x2f, 0x61, 0x63, 0x74, 0x69, 0x76, 0x61,
  0x74, 0x69, 0x6f, 0x6e, 0x2f, 0x52, 0x65, 0x6c, 0x75, 0x3b, 0x6d, 0x6f,
  0x64, 0x65, 0x6c, 0x2f, 0x62, 0x61, 0x74, 0x63, 0x68, 0x5f, 0x6e, 0x6f,
  0x72, 0x6d, 0x61, 0x6c, 0x69, 0x7a, 0x61, 0x74, 0x69, 0x6f, 0x6e, 0x2f,
  0x46, 0x75, 0x73, 0x65, 0x64, 0x42, 0x61, 0x74, 0x63, 0x68, 0x4e, 0x6f,
  0x72, 0x6d, 0x56, 0x33, 0x3b, 0x6d, 0x6f, 0x64, 0x65, 0x6c, 0x2f, 0x63,
  0x6f, 0x6e, 0x76, 0x32, 0x64, 0x2f, 0x42, 0x69, 0x61, 0x73, 0x41, 0x64,
  0x64, 0x2f, 0x52, 0x65, 0x61, 0x64, 0x56, 0x61, 0x72, 0x69, 0x61, 0x62,
  0x6c, 0x65, 0x4f, 0x70, 0x3b, 0x6d, 0x6f, 0x64, 0x65, 0x6c, 0x2f, 0x63,
  0x6f, 0x6e, 0x76, 0x32, 0x64, 0x2f, 0x42, 0x69, 0x61, 0x73, 0x41, 0x64,
  0x64, 0x3b, 0x6d, 0x6f, 0x64, 0x65, 0x6c, 0x2f, 0x63, 0x6f, 0x6e, 0x76,
  0x32, 0x64, 0x2f, 0x43, 0x6f, 0x6e, 0x76, 0x32, 0x44, 0x2f, 0x52, 0x65,
  0x61, 0x64, 0x56, 0x61, 0x72, 0x69, 0x61, 0x62, 0x6c, 0x65, 0x4f, 0x70,
  0x3b, 0x6d, 0x6f, 0x64, 0x65, 0x6c, 0x2f, 0x63, 0x6f, 0x6e, 0x76, 0x32,
  0x64, 0x2f, 0x43, 0x6f, 0x6e, 0x76, 0x32, 0x44, 0x31, 0x00, 0x00, 0x00,
  0x04, 0x00, 0x00, 0x00, 0x01, 0x00, 0x00, 0x00, 0x30, 0x00, 0x00, 0x00,
  0x30, 0x00, 0x00, 0x00, 0x20, 0x00, 0x00, 0x00, 0xca, 0xf8, 0xff, 0xff,
  0x00, 0x00, 0x00, 0x09, 0x54, 0x03, 0x00, 0x00, 0x06, 0x00, 0x00, 0x00,
  0xac, 0x02, 0x00, 0x00, 0x04, 0x00, 0x00, 0x00, 0xbc, 0xf8, 0xff, 0xff,
  0x1c, 0x02, 0x00, 0x00, 0x94, 0x01, 0x00, 0x00, 0x0c, 0x01, 0x00, 0x00,
  0x04, 0x00, 0x00, 0x00, 0x20, 0x00, 0x00, 0x00, 0x00, 0x00, 0x00, 0x00,
  0x00, 0x00, 0x00, 0x00, 0x00, 0x00, 0x00, 0x00, 0x00, 0x00, 0x00, 0x00,
  0x00, 0x00, 0x00, 0x00, 0x00, 0x00, 0x00, 0x00, 0x00, 0x00, 0x00, 0x00,
  0x00, 0x00, 0x00, 0x00, 0x00, 0x00, 0x00, 0x00, 0x00, 0x00, 0x00, 0x00,
  0x00, 0x00, 0x00, 0x00, 0x00, 0x00, 0x00, 0x00, 0x00, 0x00, 0x00, 0x00,
  0x00, 0x00, 0x00, 0x00, 0x00, 0x00, 0x00, 0x00, 0x00, 0x00, 0x00, 0x00,
  0x00, 0x00, 0x00, 0x00, 0x00, 0x00, 0x00, 0x00, 0x00, 0x00, 0x00, 0x00,
  0x00, 0x00, 0x00, 0x00, 0x00, 0x00, 0x00, 0x00, 0x00, 0x00, 0x00, 0x00,
  0x00, 0x00, 0x00, 0x00, 0x00, 0x00, 0x00, 0x00, 0x00, 0x00, 0x00, 0x00,
  0x00, 0x00, 0x00, 0x00, 0x00, 0x00, 0x00, 0x00, 0x00, 0x00, 0x00, 0x00,
  0x00, 0x00, 0x00, 0x00, 0x00, 0x00, 0x00, 0x00, 0x00, 0x00, 0x00, 0x00,
  0x00, 0x00, 0x00, 0x00, 0x00, 0x00, 0x00, 0x00, 0x00, 0x00, 0x00, 0x00,
  0x00, 0x00, 0x00, 0x00, 0x00, 0x00, 0x00, 0x00, 0x00, 0x00, 0x00, 0x00,
  0x00, 0x00, 0x00, 0x00, 0x00, 0x00, 0x00, 0x00, 0x00, 0x00, 0x00, 0x00,
  0x00, 0x00, 0x00, 0x00, 0x00, 0x00, 0x00, 0x00, 0x00, 0x00, 0x00, 0x00,
  0x00, 0x00, 0x00, 0x00, 0x00, 0x00, 0x00, 0x00, 0x00, 0x00, 0x00, 0x00,
  0x00, 0x00, 0x00, 0x00, 0x00, 0x00, 0x00, 0x00, 0x00, 0x00, 0x00, 0x00,
  0x00, 0x00, 0x00, 0x00, 0x00, 0x00, 0x00, 0x00, 0x00, 0x00, 0x00, 0x00,
  0x00, 0x00, 0x00, 0x00, 0x00, 0x00, 0x00, 0x00, 0x00, 0x00, 0x00, 0x00,
  0x00, 0x00, 0x00, 0x00, 0x00, 0x00, 0x00, 0x00, 0x00, 0x00, 0x00, 0x00,
  0x00, 0x00, 0x00, 0x00, 0x00, 0x00, 0x00, 0x00, 0x00, 0x00, 0x00, 0x00,
  0x00, 0x00, 0x00, 0x00, 0x00, 0x00, 0x00, 0x00, 0x00, 0x00, 0x00, 0x00,
  0x20, 0x00, 0x00, 0x00, 0x52, 0x92, 0x05, 0x3c, 0xf5, 0x9c, 0xbb, 0x3c,
  0x8e, 0x2a, 0xdc, 0x3c, 0x8e, 0x5e, 0xf8, 0x3c, 0x71, 0x55, 0xbb, 0x3c,
  0x63, 0xef, 0xf4, 0x3c, 0xc1, 0x11, 0x5b, 0x3c, 0x83, 0x7a, 0xe1, 0x3c,
  0x9b, 0xa0, 0xaa, 0x3c, 0x2f, 0x89, 0x1d, 0x3d, 0x97, 0xee, 0x18, 0x3c,
  0xb6, 0xbe, 0x01, 0x3c, 0xdf, 0x50, 0xdc, 0x3c, 0x31, 0xc7, 0x03, 0x3d,
  0x39, 0xbf, 0xda, 0x3c, 0xbf, 0xce, 0xd4, 0x3c, 0xca, 0x44, 0x42, 0x3c,
  0x91, 0xf6, 0xc4, 0x3b, 0x46, 0x8f, 0x2e, 0x3d, 0xef, 0x16, 0x10, 0x3c,
  0x1e, 0xbc, 0xfe, 0x3c, 0xba, 0xf3, 0x0a, 0x3c, 0x26, 0x4c, 0x33, 0x3c,
  0xc6, 0xb0, 0x07, 0x3c, 0x13, 0x39, 0xb0, 0x3c, 0xf4, 0x93, 0xf0, 0x3c,
  0xef, 0x5f, 0xe4, 0x3c, 0xa2, 0x20, 0xad, 0x3c, 0x7a, 0x77, 0xcf, 0x3c,
  0x8f, 0xa3, 0x14, 0x3c, 0x36, 0x80, 0x2b, 0x3c, 0x95, 0xab, 0x04, 0x3d,
  0x20, 0x00, 0x00, 0x00, 0x37, 0xa3, 0x0d, 0x3f, 0xbb, 0x25, 0x3a, 0x40,
  0x5f, 0xf4, 0x51, 0x40, 0xd1, 0x6d, 0x76, 0x40, 0x8c, 0xe2, 0xc7, 0x3f,
  0x79, 0x18, 0xe7, 0x3f, 0x9d, 0x5b, 0xd9, 0x3f, 0x8e, 0xb7, 0x5f, 0x40,
  0x5a, 0x4b, 0x29, 0x40, 0x6f, 0xe5, 0x99, 0x40, 0x35, 0x6b, 0x04, 0x3f,
  0xe6, 0x19, 0x5d, 0x3e, 0x3d, 0x98, 0x5a, 0x40, 0xaa, 0x0b, 0x55, 0x40,
  0xbb, 0x09, 0x59, 0x40, 0x22, 0x25, 0x53, 0x40, 0xe1, 0xf3, 0xab, 0x3f,
  0xa4, 0x6c, 0x43, 0x3f, 0x07, 0x7c, 0x08, 0x40, 0xc1, 0xf6, 0x8e, 0x3f,
  0xa6, 0xbe, 0x7c, 0x40, 0xbc, 0xde, 0xc7, 0x3e, 0x8e, 0xe5, 0xb1, 0x3f,
  0x64, 0xa1, 0x86, 0x3f, 0xa1, 0xd8, 0x2e, 0x40, 0xbb, 0xe9, 0x6b, 0x40,
  0x2f, 0x97, 0x62, 0x40, 0x61, 0xc6, 0x2b, 0x40, 0x42, 0x41, 0x26, 0x40,
  0x48, 0x7a, 0x93, 0x3f, 0x36, 0x29, 0xaa, 0x3f, 0x3e, 0xa2, 0x83, 0x40,
  0x20, 0x00, 0x00, 0x00, 0x2d, 0x87, 0x84, 0xbf, 0x13, 0x3a, 0xa9, 0xbf,
  0x39, 0x72, 0x5a, 0xc0, 0xf3, 0x30, 0x65, 0xc0, 0xc6, 0xde, 0x39, 0xc0,
  0x84, 0x05, 0x73, 0xc0, 0xb3, 0x98, 0xd5, 0xbf, 0xb1, 0x41, 0x3f, 0xc0,
  0xbc, 0xbf, 0xc8, 0xbf, 0x1d, 0x4e, 0x9c, 0xc0, 0xba, 0xbc, 0x97, 0xbf,
  0x39, 0xbb, 0x80, 0xbf, 0x34, 0xe2, 0xa7, 0xbf, 0xa3, 0xbf, 0x82, 0xc0,
  0xaf, 0xec, 0x0b, 0xc0, 0xae, 0xc3, 0x00, 0xc0, 0x40, 0xc0, 0xc0, 0xbf,
  0x2a, 0x3c, 0x8d, 0x3c, 0x27, 0x32, 0xad, 0xc0, 0x43, 0xc9, 0xc6, 0xbd,
  0x70, 0xf4, 0x43, 0xc0, 0xd3, 0xdd, 0x89, 0xbf, 0x85, 0x2d, 0xbb, 0xbd,
  0xcb, 0x1e, 0x4f, 0xbe, 0x89, 0x99, 0x1a, 0xc0, 0xcc, 0xb2, 0x6e, 0xc0,
  0xb3, 0x35, 0xac, 0xbf, 0xfb, 0x62, 0xae, 0xbf, 0x8b, 0xd8, 0x4d, 0xc0,
  0xcd, 0xa8, 0x90, 0x3d, 0x5c, 0x11, 0x0d, 0xbc, 0xdf, 0xa6, 0x15, 0xc0,
  0x9a, 0x00, 0x00, 0x00, 0x6d, 0x6f, 0x64, 0x65, 0x6c, 0x2f, 0x62, 0x61,
  0x74, 0x63, 0x68, 0x5f, 0x6e, 0x6f, 0x72, 0x6d, 0x61, 0x6c, 0x69, 0x7a,
  0x61, 0x74, 0x69, 0x6f, 0x6e, 0x2f, 0x46, 0x75, 0x73, 0x65, 0x64, 0x42,
  0x61, 0x74, 0x63, 0x68, 0x4e, 0x6f, 0x72, 0x6d, 0x56, 0x33, 0x3b, 0x6d,
  0x6f, 0x64, 0x65, 0x6c, 0x2f, 0x63, 0x6f, 0x6e, 0x76, 0x32, 0x64, 0x2f,
  0x42, 0x69, 0x61, 0x73, 0x41, 0x64, 0x64, 0x2f, 0x52, 0x65, 0x61, 0x64,
  0x56, 0x61, 0x72, 0x69, 0x61, 0x62, 0x6c, 0x65, 0x4f, 0x70, 0x3b, 0x6d,
  0x6f, 0x64, 0x65, 0x6c, 0x2f, 0x63, 0x6f, 0x6e, 0x76, 0x32, 0x64, 0x2f,
  0x42, 0x69, 0x61, 0x73, 0x41, 0x64, 0x64, 0x3b, 0x6d, 0x6f, 0x64, 0x65,
  0x6c, 0x2f, 0x63, 0x6f, 0x6e, 0x76, 0x32, 0x64, 0x2f, 0x43, 0x6f, 0x6e,
  0x76, 0x32, 0x44, 0x2f, 0x52, 0x65, 0x61, 0x64, 0x56, 0x61, 0x72, 0x69,
  0x61, 0x62, 0x6c, 0x65, 0x4f, 0x70, 0x3b, 0x6d, 0x6f, 0x64, 0x65, 0x6c,
  0x2f, 0x63, 0x6f, 0x6e, 0x76, 0x32, 0x64, 0x2f, 0x43, 0x6f, 0x6e, 0x76,
  0x32, 0x44, 0x00, 0x00, 0x04, 0x00, 0x00, 0x00, 0x20, 0x00, 0x00, 0x00,
  0x03, 0x00, 0x00, 0x00, 0x03, 0x00, 0x00, 0x00, 0x01, 0x00, 0x00, 0x00,
  0x3a, 0xfc, 0xff, 0xff, 0x00, 0x00, 0x00, 0x09, 0x64, 0x00, 0x00, 0x00,
  0x05, 0x00, 0x00, 0x00, 0x44, 0x00, 0x00, 0x00, 0x04, 0x00, 0x00, 0x00,
  0x2c, 0xfc, 0xff, 0xff, 0x30, 0x00, 0x00, 0x00, 0x24, 0x00, 0x00, 0x00,
  0x18, 0x00, 0x00, 0x00, 0x04, 0x00, 0x00, 0x00, 0x01, 0x00, 0x00, 0x00,
  0x00, 0x00, 0x00, 0x00, 0x00, 0x00, 0x00, 0x00, 0x00, 0x00, 0x00, 0x00,
  0x01, 0x00, 0x00, 0x00, 0xa0, 0xfd, 0x8c, 0x3b, 0x01, 0x00, 0x00, 0x00,
  0xa5, 0xe3, 0x0b, 0x3f, 0x01, 0x00, 0x00, 0x00, 0xa4, 0x85, 0x03, 0xbf,
  0x12, 0x00, 0x00, 0x00, 0x6d, 0x6f, 0x64, 0x65, 0x6c, 0x2f, 0x64, 0x65,
  0x6e, 0x73, 0x65, 0x2f, 0x4d, 0x61, 0x74, 0x4d, 0x75, 0x6c, 0x00, 0x00,
  0x02, 0x00, 0x00, 0x00, 0x02, 0x00, 0x00, 0x00, 0x20, 0x00, 0x00, 0x00,
  0xb2, 0xfc, 0xff, 0xff, 0x00, 0x00, 0x00, 0x02, 0x60, 0x02, 0x00, 0x00,
  0x04, 0x00, 0x00, 0x00, 0xa0, 0x01, 0x00, 0x00, 0x04, 0x00, 0x00, 0x00,
  0x2c, 0xfd, 0xff, 0xff, 0x10, 0x01, 0x00, 0x00, 0x04, 0x00, 0x00, 0x00,
  0x20, 0x00, 0x00, 0x00, 0x00, 0x00, 0x00, 0x00, 0x00, 0x00, 0x00, 0x00,
  0x00, 0x00, 0x00, 0x00, 0x00, 0x00, 0x00, 0x00, 0x00, 0x00, 0x00, 0x00,
  0x00, 0x00, 0x00, 0x00, 0x00, 0x00, 0x00, 0x00, 0x00, 0x00, 0x00, 0x00,
  0x00, 0x00, 0x00, 0x00, 0x00, 0x00, 0x00, 0x00, 0x00, 0x00, 0x00, 0x00,
  0x00, 0x00, 0x00, 0x00, 0x00, 0x00, 0x00, 0x00, 0x00, 0x00, 0x00, 0x00,
  0x00, 0x00, 0x00, 0x00, 0x00, 0x00, 0x00, 0x00, 0x00, 0x00, 0x00, 0x00,
  0x00, 0x00, 0x00, 0x00, 0x00, 0x00, 0x00, 0x00, 0x00, 0x00, 0x00, 0x00,
  0x00, 0x00, 0x00, 0x00, 0x00, 0x00, 0x00, 0x00, 0x00, 0x00, 0x00, 0x00,
  0x00, 0x00, 0x00, 0x00, 0x00, 0x00, 0x00, 0x00, 0x00, 0x00, 0x00, 0x00,
  0x00, 0x00, 0x00, 0x00, 0x00, 0x00, 0x00, 0x00, 0x00, 0x00, 0x00, 0x00,
  0x00, 0x00, 0x00, 0x00, 0x00, 0x00, 0x00, 0x00, 0x00, 0x00, 0x00, 0x00,
  0x00, 0x00, 0x00, 0x00, 0x00, 0x00, 0x00, 0x00, 0x00, 0x00, 0x00, 0x00,
  0x00, 0x00, 0x00, 0x00, 0x00, 0x00, 0x00, 0x00, 0x00, 0x00, 0x00, 0x00,
  0x00, 0x00, 0x00, 0x00, 0x00, 0x00, 0x00, 0x00, 0x00, 0x00, 0x00, 0x00,
  0x00, 0x00, 0x00, 0x00, 0x00, 0x00, 0x00, 0x00, 0x00, 0x00, 0x00, 0x00,
  0x00, 0x00, 0x00, 0x00, 0x00, 0x00, 0x00, 0x00, 0x00, 0x00, 0x00, 0x00,
  0x00, 0x00, 0x00, 0x00, 0x00, 0x00, 0x00, 0x00, 0x00, 0x00, 0x00, 0x00,
  0x00, 0x00, 0x00, 0x00, 0x00, 0x00, 0x00, 0x00, 0x00, 0x00, 0x00, 0x00,
  0x00, 0x00, 0x00, 0x00, 0x00, 0x00, 0x00, 0x00, 0x00, 0x00, 0x00, 0x00,
  0x00, 0x00, 0x00, 0x00, 0x00, 0x00, 0x00, 0x00, 0x00, 0x00, 0x00, 0x00,
  0x00, 0x00, 0x00, 0x00, 0x00, 0x00, 0x00, 0x00, 0x00, 0x00, 0x00, 0x00,
  0x00, 0x00, 0x00, 0x00, 0x00, 0x00, 0x00, 0x00, 0x00, 0x00, 0x00, 0x00,
  0x20, 0x00, 0x00, 0x00, 0x52, 0x92, 0x05, 0x3c, 0xf5, 0x9c, 0xbb, 0x3c,
  0x8e, 0x2a, 0xdc, 0x3c, 0x8e, 0x5e, 0xf8, 0x3c, 0x71, 0x55, 0xbb, 0x3c,
  0x63, 0xef, 0xf4, 0x3c, 0xc1, 0x11, 0x5b, 0x3c, 0x83, 0x7a, 0xe1, 0x3c,
  0x9b, 0xa0, 0xaa, 0x3c, 0x2f, 0x89, 0x1d, 0x3d, 0x97, 0xee, 0x18, 0x3c,
  0xb6, 0xbe, 0x01, 0x3c, 0xdf, 0x50, 0xdc, 0x3c, 0x31, 0xc7, 0x03, 0x3d,
  0x39, 0xbf, 0xda, 0x3c, 0xbf, 0xce, 0xd4, 0x3c, 0xca, 0x44, 0x42, 0x3c,
  0x91, 0xf6, 0xc4, 0x3b, 0x46, 0x8f, 0x2e, 0x3d, 0xef, 0x16, 0x10, 0x3c,
  0x1e, 0xbc, 0xfe, 0x3c, 0xba, 0xf3, 0x0a, 0x3c, 0x26, 0x4c, 0x33, 0x3c,
  0xc6, 0xb0, 0x07, 0x3c, 0x13, 0x39, 0xb0, 0x3c, 0xf4, 0x93, 0xf0, 0x3c,
  0xef, 0x5f, 0xe4, 0x3c, 0xa2, 0x20, 0xad, 0x3c, 0x7a, 0x77, 0xcf, 0x3c,
  0x8f, 0xa3, 0x14, 0x3c, 0x36, 0x80, 0x2b, 0x3c, 0x95, 0xab, 0x04, 0x3d,
  0xb0, 0x00, 0x00, 0x00, 0x6d, 0x6f, 0x64, 0x65, 0x6c, 0x2f, 0x61, 0x63,
  0x74, 0x69, 0x76, 0x61, 0x74, 0x69, 0x6f, 0x6e, 0x2f, 0x52, 0x65, 0x6c,
  0x75, 0x3b, 0x6d, 0x6f, 0x64, 0x65, 0x6c, 0x2f, 0x62, 0x61, 0x74, 0x63,
  0x68, 0x5f, 0x6e, 0x6f, 0x72, 0x6d, 0x61, 0x6c, 0x69, 0x7a, 0x61, 0x74,
  0x69, 0x6f, 0x6e, 0x2f, 0x46, 0x75, 0x73, 0x65, 0x64, 0x42, 0x61, 0x74,
  0x63, 0x68, 0x4e, 0x6f, 0x72, 0x6d, 0x56, 0x33, 0x3b, 0x6d, 0x6f, 0x64,
  0x65, 0x6c, 0x2f, 0x63, 0x6f, 0x6e, 0x76, 0x32, 0x64, 0x2f, 0x42, 0x69,
  0x61, 0x73, 0x41, 0x64, 0x64, 0x2f, 0x52, 0x65, 0x61, 0x64, 0x56, 0x61,
  0x72, 0x69, 0x61, 0x62, 0x6c, 0x65, 0x4f, 0x70, 0x3b, 0x6d, 0x6f, 0x64,
  0x65, 0x6c, 0x2f, 0x63, 0x6f, 0x6e, 0x76, 0x32, 0x64, 0x2f, 0x42, 0x69,
  0x61, 0x73, 0x41, 0x64, 0x64, 0x3b, 0x6d, 0x6f, 0x64, 0x65, 0x6c, 0x2f,
  0x63, 0x6f, 0x6e, 0x76, 0x32, 0x64, 0x2f, 0x43, 0x6f, 0x6e, 0x76, 0x32,
  0x44, 0x2f, 0x52, 0x65, 0x61, 0x64, 0x56, 0x61, 0x72, 0x69, 0x61, 0x62,
  0x6c, 0x65, 0x4f, 0x70, 0x3b, 0x6d, 0x6f, 0x64, 0x65, 0x6c, 0x2f, 0x63,
  0x6f, 0x6e, 0x76, 0x32, 0x64, 0x2f, 0x43, 0x6f, 0x6e, 0x76, 0x32, 0x44,
  0x00, 0x00, 0x00, 0x00, 0x01, 0x00, 0x00, 0x00, 0x20, 0x00, 0x00, 0x00,
  0x22, 0xff, 0xff, 0xff, 0x00, 0x00, 0x00, 0x02, 0x54, 0x00, 0x00, 0x00,
  0x03, 0x00, 0x00, 0x00, 0x10, 0x00, 0x00, 0x00, 0x08, 0x00, 0x00, 0x00,
  0x04, 0x00, 0x04, 0x00, 0x04, 0x00, 0x00, 0x00, 0x35, 0x00, 0x00, 0x00,
  0x6d, 0x6f, 0x64, 0x65, 0x6c, 0x2f, 0x67, 0x6c, 0x6f, 0x62, 0x61, 0x6c,
  0x5f, 0x61, 0x76, 0x65, 0x72, 0x61, 0x67, 0x65, 0x5f, 0x70, 0x6f, 0x6f,
  0x6c, 0x69, 0x6e, 0x67, 0x32, 0x64, 0x2f, 0x4d, 0x65, 0x61, 0x6e, 0x2f,
  0x72, 0x65, 0x64, 0x75, 0x63, 0x74, 0x69, 0x6f, 0x6e, 0x5f, 0x69, 0x6e,
  0x64, 0x69, 0x63, 0x65, 0x73, 0x00, 0x00, 0x00, 0x01, 0x00, 0x00, 0x00,
  0x02, 0x00, 0x00, 0x00, 0x86, 0xff, 0xff, 0xff, 0x00, 0x00, 0x00, 0x02,
  0x68, 0x00, 0x00, 0x00, 0x02, 0x00, 0x00, 0x00, 0x38, 0x00, 0x00, 0x00,
  0x10, 0x00, 0x00, 0x00, 0x0c, 0x00, 0x0c, 0x00, 0x00, 0x00, 0x00, 0x00,
  0x04, 0x00, 0x08, 0x00, 0x0c, 0x00, 0x00, 0x00, 0x18, 0x00, 0x00, 0x00,
  0x04, 0x00, 0x00, 0x00, 0x01, 0x00, 0x00, 0x00, 0x00, 0x00, 0x00, 0x00,
  0x00, 0x00, 0x00, 0x00, 0x00, 0x00, 0x00, 0x00, 0x01, 0x00, 0x00, 0x00,
  0xe3, 0xad, 0x70, 0x3c, 0x22, 0x00, 0x00, 0x00, 0x6d, 0x6f, 0x64, 0x65,
  0x6c, 0x2f, 0x64, 0x65, 0x6e, 0x73, 0x65, 0x2f, 0x42, 0x69, 0x61, 0x73,
  0x41, 0x64, 0x64, 0x2f, 0x52, 0x65, 0x61, 0x64, 0x56, 0x61, 0x72, 0x69,
  0x61, 0x62, 0x6c, 0x65, 0x4f, 0x70, 0x00, 0x00, 0x01, 0x00, 0x00, 0x00,
  0x02, 0x00, 0x00, 0x00, 0x00, 0x00, 0x0e, 0x00, 0x18, 0x00, 0x08, 0x00,
  0x07, 0x00, 0x0c, 0x00, 0x10, 0x00, 0x14, 0x00, 0x0e, 0x00, 0x00, 0x00,
  0x00, 0x00, 0x00, 0x09, 0x68, 0x00, 0x00, 0x00, 0x01, 0x00, 0x00, 0x00,
  0x4c, 0x00, 0x00, 0x00, 0x10, 0x00, 0x00, 0x00, 0x0c, 0x00, 0x14, 0x00,
  0x04, 0x00, 0x08, 0x00, 0x0c, 0x00, 0x10, 0x00, 0x0c, 0x00, 0x00, 0x00,
  0x2c, 0x00, 0x00, 0x00, 0x20, 0x00, 0x00, 0x00, 0x14, 0x00, 0x00, 0x00,
  0x04, 0x00, 0x00, 0x00, 0x01, 0x00, 0x00, 0x00, 0x80, 0xff, 0xff, 0xff,
  0xff, 0xff, 0xff, 0xff, 0x01, 0x00, 0x00, 0x00, 0x00, 0x00, 0x80, 0x3f,
  0x01, 0x00, 0x00, 0x00, 0x00, 0x00, 0x7f, 0x43, 0x01, 0x00, 0x00, 0x00,
  0x00, 0x00, 0x00, 0x00, 0x0c, 0x00, 0x00, 0x00, 0x69, 0x6e, 0x70, 0x75,
  0x74, 0x5f, 0x31, 0x5f, 0x69, 0x6e, 0x74, 0x38, 0x00, 0x00, 0x00, 0x00,
  0x04, 0x00, 0x00, 0x00, 0x01, 0x00, 0x00, 0x00, 0x60, 0x00, 0x00, 0x00,
  0x60, 0x00, 0x00, 0x00, 0x01, 0x00, 0x00, 0x00, 0x06, 0x00, 0x00, 0x00,
  0x70, 0x00, 0x00, 0x00, 0x54, 0x00, 0x00, 0x00, 0x38, 0x00, 0x00, 0x00,
  0x28, 0x00, 0x00, 0x00, 0x1c, 0x00, 0x00, 0x00, 0x04, 0x00, 0x00, 0x00,
  0xca, 0xff, 0xff, 0xff, 0x00, 0x00, 0x00, 0x06, 0x02, 0x00, 0x00, 0x00,
  0x00, 0x00, 0x06, 0x00, 0x08, 0x00, 0x07, 0x00, 0x06, 0x00, 0x00, 0x00,
  0x00, 0x00, 0x00, 0x72, 0xce, 0xff, 0xff, 0xff, 0x00, 0x00, 0x00, 0x19,
  0x02, 0x00, 0x00, 0x00, 0xf2, 0xff, 0xff, 0xff, 0x00, 0x00, 0x00, 0x09,
  0x04, 0x00, 0x00, 0x00, 0x00, 0x00, 0x0a, 0x00, 0x0e, 0x00, 0x07, 0x00,
  0x00, 0x00, 0x08, 0x00, 0x0a, 0x00, 0x00, 0x00, 0x00, 0x00, 0x00, 0x28,
  0x02, 0x00, 0x00, 0x00, 0x00, 0x00, 0x0a, 0x00, 0x0c, 0x00, 0x07, 0x00,
  0x00, 0x00, 0x08, 0x00, 0x0a, 0x00, 0x00, 0x00, 0x00, 0x00, 0x00, 0x03,
  0x03, 0x00, 0x00, 0x00
};
unsigned int simple_tflite_len = 4240;
